CE
99
C9
6D
CA
BF
B3
9A
B1
CF
AD
CB
95
A0
AF
D0
AA
AD
58
42
5B
75
41
9D
AC
5D
FE
41
7E
7A
4F
53
94
77
4D
C4
B0
95
62
9A
73
B8
63
BD
9C
78
8E
4F
7A
7C
6F
7A
71
6C
7D
BE
80
BE
58
AE
74
4A
58
8A
6B
58
48
9E
80
51
B3
B9
4D
98
74
46
92
9B
B3
7A
BC
98
DC
5A
91
A5
AF
C3
99
75
AA
47
7E
D7
69
8C
B6
44
7B
9F
90
57
9C
7D
67
8C
8F
FE
