FE
FE
FE
FE
FE
FE
FE
FE
B9
EA
BA
FE
EE
FE
FD
FE
B2
B6
76
44
64
93
43
A6
CA
5F
FE
25
58
48
22
23
83
4D
10
C4
AD
96
4A
8C
6D
AD
50
B6
96
77
8E
49
79
7C
69
79
71
10
8F
CE
9D
CF
7F
D1
8C
70
58
8B
6C
65
51
A3
8B
5E
B5
B7
4F
9A
72
48
94
99
B5
7C
F3
FD
FD
FE
FE
FE
FE
FE
FE
7A
B7
51
EE
FE
EF
FE
F6
4D
A6
B0
90
82
AD
7D
92
9D
8F
FE
