B4
7F
A4
FA
E7
C8
15
B4
1F
BA
FE
4D
B5
A6
71
9D
87
3F
3D
21
2E
A6
1C
81
10
C5
32
73
9E
A5
3B
5E
B7
F4
8A
6B
96
67
9E
3D
A6
96
6A
53
BD
85
4D
CF
5C
7E
7B
B0
AB
10
D6
6D
F0
8D
FE
72
10
10
87
87
87
87
89
87
8A
87
85
87
89
87
89
88
84
8B
88
85
87
87
87
8C
88
88
87
88
88
87
88
87
8B
89
8A
88
89
88
89
88
8B
8A
8D
92
89
8A
8E
8B
87
87
87
B6
00
00
00
00
00
00
00
00
00
00
00
00
00
00
00
00
