2B
9D
10
84
14
C9
32
5D
9E
A6
3C
60
B8
F3
8D
69
95
65
9C
3B
9E
93
66
51
BA
80
51
CA
57
7C
66
6F
7E
16
B0
39
D1
6C
EC
71
E9
28
BE
EA
11
D7
72
94
97
40
DC
76
E3
10
CA
DB
52
B7
B5
A8
BF
56
FD
AA
C6
A2
FE
C8
2D
79
6D
17
49
AD
B8
81
F5
B8
93
9A
FE
C2
F3
10
C2
9E
59
79
E5
20
FE
DC
29
D8
1A
E8
10
FE
9A
71
BB
EA
B8
BA
1C
FE
84
C3
