5C
46
86
7E
79
63
5A
56
AC
48
47
57
77
7B
46
72
AB
78
B2
87
41
68
AC
97
87
67
77
96
5A
57
A1
58
9B
98
83
4B
B5
5F
A0
54
8B
9C
71
51
4B
7A
8A
54
7B
59
A1
87
B4
9D
69
9E
9A
75
84
52
6B
7E
69
B6
A1
85
78
93
4E
7A
48
90
A6
84
50
76
90
76
BF
A5
B5
64
83
63
7F
83
AD
A6
9C
78
63
BE
57
4C
5C
67
68
AC
50
A2
A1
B7
80
42
5D
84
97
5C
