FE
FE
FE
FE
FE
FE
FE
FE
FE
FD
FE
FE
FE
FE
FE
FE
FE
FD
9E
44
FD
FE
38
FD
75
ED
FE
CA
E4
E8
AA
53
D6
DC
21
F5
F7
F4
E0
15
61
1C
10
9E
5A
51
45
6C
27
76
1A
7B
A5
10
FD
FD
FD
FE
FD
FC
FE
FE
F8
FA
EE
FD
AB
E4
FC
DF
FE
85
F1
F2
D0
E5
6A
BB
B1
AF
FE
FE
FE
FE
FE
FE
FE
FE
FE
FE
FE
FE
FE
FE
FE
FE
FE
FE
FE
FE
FE
FE
FE
8A
FE
FE
B8
FE