2B
9D
10
85
14
C9
31
5E
9C
A5
3B
60
B7
F2
8C
69
95
64
9B
3B
9E
93
66
51
BA
80
50
CA
57
7C
5F
6B
74
10
A9
3B
CE
5E
E1
67
E6
21
BB
E9
10
D2
6F
91
97
3E
D9
76
E1
10
CA
DB
52
BC
BC
AB
C4
5E
FE
AC
D0
A5
FD
CA
31
7B
70
1E
49
AD
B8
81
F8
B8
93
9D
FE
C2
F3
10
E4
AD
76
8A
F8
31
FE
F7
3C
EF
2C
FE
14
FE
A7
81
BA
EF
BE
C2
21
FE
8C
FA
