FE
FD
FE
FE
FE
FE
FE
FE
FE
FE
FE
FE
FE
FE
FE
FE
FE
FD
D7
60
FD
FE
54
FD
AE
FD
FE
E2
ED
ED
D1
8E
F6
EB
3F
FD
FE
FE
F3
10
25
10
11
DA
2D
3D
41
3F
13
72
10
67
A1
12
FB
FD
FE
FE
FE
FE
FE
FA
FD
FE
FE
FE
FC
FE
FE
FE
FE
85
F7
FE
D0
F0
7B
BB
BC
C0
FD
FE
FE
FE
FE
FE
FE
FE
FE
FE
FE
FE
FE
FD
FD
FD
FE
FE
FE
FD
FE
FE
FD
FE
FE
FD
FE
FE