166
115
156
78
170
134
125
85
166
185
146
150
139
138
151
180
163
167
87
66
85
116
65
151
171
93
101
65
127
123
83
96
138
120
85
188
171
152
112
154
122
190
105
191
155
123
143
78
125
125
110
125
114
165
118
179
127
184
66
164
115
70
84
136
102
81
67
152
123
77
177
185
72
153
116
65
147
155
174
123
133
107
188
71
110
99
141
145
99
113
167
67
65
189
69
117
169
67
117
156
126
81
153
107
97
137
125
160