FE
FE
FC
F7
F5
F5
FE
F9
B2
CE
A5
D6
B8
DD
F5
DB
AA
D2
52
40
80
6F
3F
C2
A6
5B
FE
31
6D
73
29
32
67
6E
1D
B9
AB
97
64
98
75
A4
5A
BE
97
71
81
4A
73
6F
6A
73
64
12
B1
E0
D9
FE
F2
FE
CA
B8
60
8F
6C
7B
68
CE
BD
5A
B2
BB
6A
B6
76
63
B0
9D
D0
98
FE
66
B5
3B
6B
5D
86
8C
56
6E
A6
40
3D
BC
41
70
A7
42
71
9D
78
4D
9A
65
5D
8A
77
89