FB
FC
F8
FD
FD
FA
FE
FD
FD
F9
FC
FC
FE
FE
FC
FE
FD
FE
75
28
FE
D9
1C
FE
4C
D1
FE
3D
C4
71
47
23
BA
BE
33
F2
E4
C0
C1
2D
8A
60
16
51
7C
63
42
8E
39
73
3C
8D
A2
A1
FE
FE
FE
FE
FE
FE
FE
FE
FE
FE
94
FE
91
B4
DA
9D
FE
7D
EA
D9
C8
DE
51
B3
AA
96
FE
FD
FE
FE
FE
FE
FE
FE
FE
FE
FE
FE
FE
FE
FE
FE
FE
FE
FE
FE
FE
FE
FE
56
FE
FE
84
FE