FE
FE
FC
F8
FB
FC
FE
F9
F7
F8
F7
F7
F4
FD
FD
F9
A4
E5
4C
5F
93
69
5E
D5
A0
7A
FC
10
50
50
39
29
60
57
17
8F
8D
75
33
9B
78
A7
5D
BF
86
72
88
39
74
76
59
74
6B
10
B2
F5
BE
F9
99
E9
A4
97
92
B9
A6
9A
54
B0
94
58
B1
B8
5B
AA
73
54
A4
9A
C1
8C
FD
68
B0
3F
6A
5A
8D
8C
5E
6D
A1
3B
36
BD
45
72
A8
42
71
9C
7C
4D
99
69
5D
89
7B
9F