FE
FE
FE
FE
FE
FE
FE
FE
FE
ED
E5
FC
D0
FE
FE
E2
AA
FC
4B
67
AA
68
66
EC
9F
82
9A
28
5D
55
2F
10
61
34
10
A4
A5
87
3E
9A
77
AF
66
BF
87
70
88
3A
72
76
5A
72
6B
10
AD
CD
A0
D9
9E
EE
9D
7F
63
8C
6D
76
49
A2
95
52
B0
BD
59
A9
78
52
A3
9F
BF
8B
FE
6B
B9
44
68
57
8A
8E
54
6F
A7
42
3B
BC
42
73
A9
43
6E
9B
7E
4A
98
6B
5A
88
7D
84