FD
F5
F9
FA
F8
FD
F8
F7
FE
FE
FE
FE
FE
FD
FE
FD
FE
FD
E4
4B
FD
DB
79
F0
FD
93
FE
40
29
4D
44
2B
22
49
44
40
3F
3B
33
4E
82
10
20
AB
10
CA
4F
3A
86
1D
82
65
C0
FE
FD
FE
FE
FE
FD
FE
FE
FE
FE
FE
FE
FE
FB
FE
FE
FE
FE
27
BD
E2
C5
F9
FE
C5
FE
CF
F8
FE
FD
FE
FE
FE
FE
FE
FE
FE
FD
FE
FE
FE
FE
FE
FE
FE
FE
FE
FE
FE
FE
FE
FE
FE
EA
FE