FD
FD
FE
FC
FD
FE
FE
FD
FE
FE
FE
FC
FE
FE
FE
FE
FE
FE
FE
57
FE
FE
85
FE
FE
9F
F5
12
13
11
10
10
11
11
10
15
53
2A
68
40
68
10
11
A3
10
AE
29
10
6A
10
4A
49
9A
10
FE
FB
F9
FD
FB
FD
FB
FA
FE
FD
FE
FE
FD
FC
FC
FC
FD
2F
DE
FE
CD
FC
FE
CD
FC
FE
FA
FE
FE
FE
FD
FE
FE
FE
FE
FD
FE
FE
FE
FE
FE
FE
FE
FE
FE
FE
FE
FE
FE
FE
FE
FE
FE
FE