FE
FE
FD
FD
FC
FD
FD
FD
FE
FE
A7
FA
FD
FA
FD
FE
FD
83
B6
41
BC
AD
6F
6F
D4
89
FD
C8
37
80
67
59
97
20
5F
7D
F5
C0
E8
53
9B
10
60
EB
10
E3
62
7A
9F
30
C2
7E
D3
14
FE
FE
FE
FE
FD
FE
FE
FD
FE
FE
FE
FE
FE
FE
FE
FE
FE
18
9D
CE
B6
D9
FE
B6
EB
BB
FE
FE
FE
FE
FE
FE
FC
FE
FE
71
FE
FA
8D
FE
FE
FE
C8
FE
E4
9E
F5
FD
EE
EB
63
FE
B5
FE