C7
EE
E5
B3
94
DC
78
A5
DF
C6
69
BF
3B
92
CD
A9
1E
E0
08
EE
8C
CD
1C
AF
08
08
08
4E
08
88
58
1F
08
FF
2B
FF
FF
10
16
FF
9E
67
33
B6
2A
85
E4
2E
FF
41
FF
B4
FF
A3
FF
0B
BC
FF
FF
FF
FF
53
71
95
FF
81
50
4B
76
53
A7
B8
46
94
62
35
6E
99
8F
64
6F
42
B0
45
4D
5E
72
94
54
78
9B
47
08
13
08
82
18
50
7B
A8
8B
28
