B2
80
A3
F8
E8
C7
13
B3
18
B3
FE
4C
B0
A7
72
9C
7F
3C
39
1C
2B
9D
0E
7F
0F
C5
32
5F
9E
A6
3A
5E
B8
F3
8A
69
95
65
9A
39
9E
91
67
51
B8
81
4B
CA
57
7C
78
AB
AB
03
D6
5A
F0
8D
FE
72
F2
45
BE
F4
26
E4
76
98
A0
44
E0
7F
E7
DA
CA
DB
52
B5
A7
97
B4
49
FB
98
BE
8B
F9
B8
1D
78
66
09
45
AC
B9
81
F4
B9
93
99
F5
C2
F3
04
A8
7F
3E
61
C8
07
F6
B5
19
D4
15
C2
07
FB
91
66
B5
DE
B6
AB
