A6
73
9C
4E
AA
87
7C
54
A6
B9
92
96
8A
8A
97
B4
A3
A7
57
42
55
74
41
97
AB
5D
65
41
7F
7B
54
60
8B
79
55
BC
AB
98
70
9A
7A
BE
69
BF
9B
7B
8F
4E
7D
7D
6E
7D
72
AB
76
B3
7F
B8
42
A4
72
46
54
88
66
51
43
98
7B
4D
B1
B9
48
99
74
41
93
9B
AE
7B
86
6B
BC
47
6E
62
8D
90
63
71
A7
43
41
BD
45
75
A9
43
75
9C
7E
51
99
6B
61
89
7D
A3
