B1
86
B0
5C
B5
9F
97
62
A7
BB
97
9C
8E
8F
9E
BB
A5
A9
57
42
57
74
41
99
AB
5D
EC
45
80
7C
57
5A
86
77
4E
BC
AB
9B
72
9A
7A
BE
68
C0
9B
7B
8E
4E
7D
7C
6E
7D
71
8A
77
B7
80
BC
46
A9
76
4B
54
89
66
53
42
98
7B
4D
B1
B9
49
9A
74
42
94
9B
AF
7C
AA
6E
BF
4C
6F
64
8D
90
65
71
A7
43
40
BE
45
75
A9
43
77
9C
7F
53
99
6C
63
89
7E
AF
